#map = affine_map<(d0, d1, d2, d3) -> (d1)>
#map1 = affine_map<(d0, d1, d2, d3) -> (d0, d1, d2, d3)>
#map2 = affine_map<(d0, d1, d2, d3) -> (0, d1, d2, d3)>
#map3 = affine_map<(d0, d1) -> (d0, d1)>
#map4 = affine_map<(d0, d1) -> (d1, d0)>
#map5 = affine_map<(d0, d1) -> (0, d1)>
#map6 = affine_map<(d0, d1) -> (d1)>
module attributes {torch.debug_module_name = "NeuralNet"} {
  memref.global "private" @global_seed : memref<i64> = dense<0>
  func.func @forward() -> tensor<1x10xf32> {
    %cst = arith.constant 0xFF800000 : f32
    %cst_0 = arith.constant 0.000000e+00 : f32
    %cst_1 = arith.constant dense<"0x8AC99E3F5C72F73E0D3786BF016F9C3FF1FC713E93528B3F24ACBA3F2CE910BF1E4DA0BF539294BF02C068BDC84686BF56501DBFB9740F3FB678173FDC99383F05A5743E51A51640545C1C3FD77CB1BFBB79A13FD7ED9A3E983319BF99012ABED43512BF01D2B2BF65C1F4BE0AA5863F83F49F3F73A450BE005801C0FCDC77BF4F67153E2C5F5B3D2398A7BE27CBC83F6043223F168E0B3FA1A557BFC248803EA199A33F19C7FA3E0654B9BEED44543F6448683E37F9C43E6EC8D3BF0CA1E9BD229E3BBD503BF43FF009813E8F67ED3F337CED3D3560FABF5A1E32BF9A0C63BF46456B3FEE0F20BEF765F8BF9CE37ABF8E4BF6BD2F34D0BFF222E3BFC8F472BF306F72BFC490B23E817F1DBF72E22C3FBC97AF3F0975E93F0FAEC5BCDAC254BF412B98BF67A5D33F8D4C67BF480B9DBF1B0A3DBF65ACB4BF0AA8723FB9D7E5BCC90C893E07AA473F3075553F1AA3FA3F9EE4C03F6B62E93F2C91A03FF72DAABD876D3C3E9ECE98BF711C523F9D9A2ABFF4601040FBF52CBEF078CFBE61F3433F0DDFFBBFB7591DBF237D293F652D7FBF6D08333F7810E1BE276D02C01DFD034045C0C43EEC9285BECBE89ABFBD5D403F4A6D2A3F4210C5BF6365343FE03B263EF08A02C03D72AE3D7AF397BFACFFD0BEBBF88C3FF688B53EFC0EE53F9A719EBF7B893E3FF01D63BECE66B4BE8016CF3B91C090BF8204583E475F3F3F1F4695BFB747033A1829E8BFD10E393FA1B317C035C853BFA19FA13D1E75CBBD0C0BBFBFAC561ABF419A6ABFA027473F5D9E03BF7E7F81BDAAE122C0CF381EBF1862343F75EBB43F46BDB13FD1DC35BEB4C9153FE0F08E3F02DA343F97133ABFD534F5BEEA4559BF156083BFCA6C96BE515577BDD329203E7DD934BFC543F4BE566D173F81C69EBFD1E1CDBDBD2B1F3D92D759BF4BED1BBF5A97A5BF5EB7A1BF14DAFF3C30B2D5BF7FAD7D3F7455DBBEBF43E53D885A833FCFBF62BFB4BCB6BF7A723E3FC8BD7CBFA56A70BE4F5018BFFB8E7CBEAE4FA3BE6D81FA3EB1CE3DBFCBC28EBEC7AC163F29BE603FEC201ABC1F94943F072E9D3F39227EBEC31649C0555DC7BD8F5DB4BFCD141A3FEEC9903FE98FAB3F367C08400A9B91BE10FB2DBD71E9F9BEBD6E8A3F2D15973FDD7950BF41954C3F0D073CBF847713C0D2D22EBEEEC83DBFD0EFC6BE06D85BBF56C9423F09EDDEBD3DE05DBDA437F33FD8EF773F5610903F38B498BF70D1913F308E703F79E712BE8E7917BD2444963F439DF5BE37574F3FC06244BFE741A9BE12E95ABF495330BF7E7CB7BEDA92CA3F88E047BEE7E6873F110061BFAFAB953D47964E3FCDC02A3F5339C03F54F53DBF6276B8BF1424ABBF33CB05BF9969E3BBE878A2BFE34651BFBDF95F3EF16DB5BE3717DBBEB2B8B93E56AB7CBFF8658E3F8D9CE4BF449D05BFECBD103EEEBABDBD892D703FF3B68F3F72A8A1BF00D59F3F4A95D7BE0F6B783F576372BFE20BF1BEC988CCBC6517443FCF8E9DBFD3768EBFA4BB4ABF1437C53F6148C73E63A5134062763C3FFD098C3EED17253F011BFEBE607BBCBE728455BF51FEFB3EB7DE17BFA5CF613F27FAB4BFF77DFB3EB69CCCBF1AD0023F9A650FC09187E5BF6037973E3CE2683EFEDD39BDAA0FE0BF801DB3BF784237406E69EE3E58F8C3BF757BABBF6E6FB53F13C6CEBDEA13513F8531763E356A61BF448DC3BF49DF553F3D7A85BFADCD4B3F40F77E3FC808993FEEC5793FE4ADABBEAA78054090B8C83FD92AF53E6FB193BE0336C73FB80AD73FB630F73F547CE6BC8F9114BF388AE0BF154719C0948C6BBFB0CB1A3F15FD923F818EF7BE46582A3E38784E3F216E3A3FA8E9803E773D2DBF1DBB32BF09481E3F563B3C3E53DE383D5A43763D6B40693D8A145C3F337EC63E9B628BBF9036503E43DAD43DFFA663BFADD5A9BDB0D880BF80B3543FF06994BFABE7B03EDC6B4B3E6651A63FEB8BFDBE7BD7453F6903D0BF8A5E59BF87EE0BC09C98D43C3C9995BF97138B3F2AEBB0BF69AABEBFE66868BF81ED37BFD636883F8A4DD5BFE7BDA93FAB10B13F8ECBC6BFE7BC0DBDBDD2CCBFE7C04CBF72A5BC3E8AF7183FE768BE3FDC9495BF49FB1A400B222ABFE9A155BF52E9F9BD6FC688BF0147C5BFD4FE743F7395FE3E4B88693ECF85743F9017873F9799923FE4F73ABC6AB5A33F9DE321C06FF9B6BF3171EF3FC5B83FBFB558D6BD6C69803FCB9DFE3FA08ECCBF6232723F5A5E0E40FC84843EED7EFCBD9F27CCBE393DCEBFFB33C1BFF631313E2CBFAB3E2B22A73F076BFDBFBA25D4BEF66CED3E2C27FDBDBFB32DBE5B5F61BF8C190ABFF8D1B2BF18D349BF5304CA3F6B28C03FC74C3EBE717F343F9411933EA7D50AC08AC3933DC590C4BF389094BF95F7813F7AB196BF1750E03E5FC038BFD9E87E3F7AEC93BE06F3873F3BB52FBFC49F2D3FDE3D71BF40AA31BF90E5A0BF349AEF3EDE641EBFAC5BA13B4D4199BF7FA545BDBC9F0CBE95B9A5BF73369D3ED83B4FBF2ABA803EBD38B6BF52B2B3BFCDC1B8BF1F298DBF7CFB68BE224C853EB5F8F93E80640A4050329EBFBA14E5BDE88D05BF1531823E64EF913EDDA2EEBC30EB4EBFB305A33D184A31BFA86BA93F4E7FB73FB257E2BFA738823D8CD3A53FCD95D03F98EA523FFC48AEBFE5978A3EC18B963E7BCF8DBF0FA4E23F9D14E6BE71222840250B3CBF0922FBBD273248BF6A7BD13D2C5E7B3F56530ABFA03B363FBF98A03D3C19E63EB4E6C0BD0E8C073F12EF2E3FDE070FBF5D34DCBF2E40B53FD9C1883F079EE33F2FEBF3BFAF22A3BF04C1983E3FCDDCBFD7E437C01C3747BE4CC75DBF86C1613CBA31433EBC07EEBFA9EE533F3B17243FAECC5F3FFB95BABF48D518BF923C4B3F14B716BE7FFC933F29A1AE3FAD1A3A3EEE323C3F9033AE3F64258A3FB65AA73F7C3D1A3CFE25403E98AE90BFD03BB5BF12F53240DCC52A408F7C24BF33423CBE6A863EBFD2D798BE5394023F98A1923EBF26A8BE51BA04BDE2D874BD69F0BABEDE0761BF6A892F3F0190C23D575D8CBF007B043F7C0AFABE713F2F3ED910C93FEC7B813F84EC83BF06ED0CBD88F0E43FB6B1EBBE7029CD3D7EEA5E3F8FE82FBF81E506BF1301B53F23B7C13E86200940C8593D3F5CBE6C3F7D367B3F3F53AF3F025E3CBD71D5423E23B4873EEDC4BA3F96A1E43F5689ADBF83CE06BFBE22D0BE7D5D93BF1F92AA3D4D85A3BF0940E1BE2CB2233D3F55853FBBB672BE9A03B03D636E1ABF4E0D83BFC65FC5BEA1991EBF50C05ABE0D7FD4BEBAB8273E825C00BEF6E41FBFC72CC7BEC45A693EF06C9F3FA054823ECCD10CC07847C2BFEC72DBBEBB89F5BFAEAEF73EE68EC43EADC7B43CC6E90CBD3EDACEBF353E87BF286D1DBF5834B53E7449BF3C9F65313F5C118ABFB036AA3F39BD51BF2D584640E3B5093E463C44BF9A7ED3BCF188CB3E60A72E3FB97B303F4B019A3F7860A4BF6FEC74BF9D79823D0E5CA73EBE4D4ABF3031983F2DF9363E69B2973F982FC7BD5BCBABBE4B6646BFC44DC2BFDC98E6BFF47B9EBFDBA89DBF6D9D13BF9A6C24BEDDD144BF548B903FEA748D3FA816453E500F173F82383DBF4503A73EA12BCE3FCC6A0FBF78958C3F277A1FBE79593BBFC28AF7BDA774593FE65711C0EBB8943FA5F5513E1E8CC6BD76A3833FC68148407B21A33E13EEE83DEC2BEDBED165903E94FC0D3FC0101F3F307402BFFF291A3F50B7B5BE19E0CDBD949F65BF9C612D3E87F5B13F3C52413E277F073F6D5D073FDE144EBEDCAAA43FA9C117C0691214BFD56B92BF319678BEF1571CBE8544DC3DD49B09C0849B763F851C89BF903F8FBF3DFB00BF718EE7BF8935A3BFE88FD53F0060ECBF1FE1FDBF6F6DB4BF982861BD4E3F2D3FBC0359BF822762BF59058A3E18B28E3E8C31663F69A4A33FCB46C9BF05C439BF44DD753F1DEB403F46A0EB3F9FD9FB3F6F9C41C0E9BB0B3F00529C3F6366663F0F271D3FB5700E3FEED284BF2E2520C019E4A4BF1F3EB9BD4B3B333EE20E283FBB139ABF7E518BBFA68DB1BF44E1BF3E59863FBECC744EBFF44A583F3430F1BE05E6303E97E827BF40B524BE1CDAAB3E1A77CC3E96A9ECBD702D3F3E1EC9C4BFA0295EBF967DCD3F859A0A3FB424D2BE1F6801405A2A023F658E833F8A93DD3F95216CBED33C23BFCA4B86BF61719CBF557DF5BE8F30DABF9D5C54BD2E384A3EDF6182BFB64CE3BDBEF98EBFC9BB8FBE80C757BF41443D3FD628343FC6D739BFE1A00F3F8D1E0FBF0998B13F066C30BF331C124007B9453F5858AD3EEB4176BF59424B3F06EB783F652371BF35AC08C0383366BE76B34FBC4B40983D01A1593FBE1E3A3FFE91C2BF956153BFDA9153BF561A783EC300C63F4C5F853FF39084BE31FCB0BF0211FD3EF1DACD3F817B513F1B71D6BF459905BE5BB6ADBFC71E82BFC91B393E4C4849BFD17EA5BE2450213EBB945ABF8CF3C73E333DDCBFED431CC0D455863FBF5C21BFE33624BF17BF3B3FD11CD53F54F5BE3F38F034BEE6BDD93F5E54253FD414AFBE364D653E7801423E2B52D1BF17A559BE5B03D03F2F2F2CBFDE7E3A3DA7025D3F5170A7BE4B3AC6BEB4E378BF67FBD73D95DD6A3F8F6C1CBE26AD84BF7A7BA13F5336433E5651ADBFACD77EBE93CE3BBFF182D6BF88EC323FCEB27F3F076F2FBDDBE8BCBF1C4960BF1BF50C3F71B60DBF6D6BDE3D6EEB04C0DD7DF03E81B1133F19C50CBFCF776FBF8A3C01C02FAD88BFF111673EA46700BF5167C2BFD96269BE9996113FE461333F5920B9BF6EF0013F2563493FA1476FBFE45A3EBF673BA0BF43684A3F1CA65B3F075E41BF5E7AD93F38CBFFBE3C284E3F29B4CB3F7DB489BF3DD0BE3D55E633BFCFD6973EA5EFBE3E6B917DBFCDFB85BE48B624BF396DE53F074A02C020B198BE4B3A44BFCB88BC3EA6BE403F329B7FBF4873AFBE0AAA04BF6EA58EBE3B96003F46E6D9BD141DC6BF0675D13FF51D753F66DBC93E018486BFD577A03F3D11993E1B873A3F911E82BF4EF382BEC2A2C0BF7876A03F7B61923E6F7A94BD5E3425BFCF4C2C3C9A8FD03F15BFD7BF571185BEA269A8BF864A52BEF9B5173F2EEB1A3FD368CD3FEE43F5BBEFC58F3DC41793BFC8FD6FBDC224B33DF91A87BF5C4E6D3E93B835BFEC463FBF4663C83D109841BF57C610BFE40FB6BD8CB289BFF845063FBF3C023F916318BED94CB33F6977513ED5201E3E8F045F3F9BCB7EBF577B70BF0479963E59F4A63FDFA329BFC104623FD1438C3FCCDDAC3E0DDD4ABF31E52C3FCB2395BE7FEA623FA5F3DEBFC541363F5E114B3F9A61D4BE851621BE24B1C13EE445B53EBEFC70BEB041DEBE93C6CF3EC07BB9BE8ABDDD3E6DEBB13D097A803D029EC03EF12BF1BD8285B23ED66240BE822257BE6B8374BF043EAE3E8A8A223F2B92183E423FAE3DE27A14BF4FA843BFC913F2BD25E0943F38E80540CB818BBF5B0BE73E2C6C103FCD275BBF447B0240A3D2FEBD925D2BBDA77BD23E866B7DBFF8CCA33FDFBCA53DFEF739BFA824CB3E253F05BF3EFB923E4B27323FB46FA53F7DF4803F449D4F3F1479ED3F07ECE2BF1C1A27BF4449BFBDDBF452BF4441743F4E7996BE11C26DBE02CA843EAADE873F1EFC92BF7288243F2584CEBFE6F142BDB892C63F525C2C3F7F1DC7BF5686DA3E2CA5BDBEB8B0D23EA1614F3F0653143E99D286BF9BEC1E3F7C85AA3F3AA8193EBDFA4C3F22E0A2BE619EDA3EEFD90BC0F67C173FD11CE7BEC65BC5BE0B85CC3E20EFC63EEFDC123FAC65F53F8CB6083DD13E823FB0FFDC3F3ED503BF7BFF293F52B3D93DF9EF15BF9A3249BF4ABC2840DF4007BFFE6E9C3D"> : tensor<1x1x32x32xf32>
    %cst_2 = arith.constant dense<"0x9AC2853C4AC5F53D6364C33D6D3B803D82D40A3E3D34E4BD8377A83D609F363E5A87273E330EF13C800A783DAB5807BE200A42BE9A813EBDFA9D61BD879440BD87C730BE47981FBDC019653D5A6DBB3DCA43CABDB36BA8BDA3BF9B3DAD7BA83D2F430BBE7FDD15BE85E337BE73E8EF3C402BE4BDF36B123E30AED73D279014BD5F52413EDABD36BEEDCC243EA79F2D3EE74529BD2D10063D70ECA53D951635BE5AF017BDD80E09BE1AC8433EFA95833D00E34B3D4D6852BD40E4663D3A88253E5DDF84BD8AF907BEFAC21BBED3BFFCBD305629BE00A6FEBC7B79113EBA284D3D5093FEBD9AC52B3B7037B1BDF0EDDBBDEA0C113EEDFABCBD908788BDD7FA403E733DB43C136DF1BDCAF2CDBDED0448BE05AE36BED7C939BEEDFB453DA042CBBD4AC09C3DDA59F03CD5601EBE60DB793DD3698C3D4AA31EBE4DD965BD0F63063E9A3C783D0ADEE5BD0D1BD83DCD7922BE4558023EC55F46BE3D2B14BE7704073E6724A1BC2767F73D6D053CBDCDC2513B3A8123BD9AA8BFBDA0385C3D2AC70ABE422A30BE13B80CBE4322FE3D0A4FC6BD035B3A3EEDCE3D3DB378823C48B70EBE67DC6C3B377482BDD3475BBDBF86253EC3E2093EE0EB96BD3DB4AF3D006315BCBDEB3D3EC01F9B3DED7A21BE22CF37BE00CBA8BC63CE49BE9398273EB72E073E4D1C67BC0A71F43D50D5843DE7AA1D3C4DD3073E928541BE08023D3E935C7D3D2D40D5BDF26C383E93441B3E736C8BBDCAC01A3E476BA1BDCD6B223D078C0FBD0BA9293E9A153D3CBD97003EED03D6BDBD689CBDEA3EB0BD43EEAEBDD024F0BD5DA836BE73E5A9BC62541ABE93CB763D101D9FBD00580ABE"> : tensor<6x1x5x5xf32>
    %cst_3 = arith.constant dense<[-1.815660e-01, -0.0654889122, 0.16931811, 0.0908616781, 0.0647993311, -0.0328693874]> : tensor<6xf32>
    %cst_4 = arith.constant dense<"0xA453793D1328C1BCB4BF43BC91F7AA3C204E46BC5A2C15BDDD968D3DC3BE233DD37AA0BD6C9175BC1F4E89BD29F1833B8AC64F3DF3A0FB3C51BD17BD82ADBF3C0115E63B4218BE3BE4771ABDE6AF633D12A8833DE7228ABDF5B1A0BBE938473CCAE2343BEF6764BBFAF2463CA1907BBDE90E4B3D665CCD3C60F8A4BD2472943D85969EBD954A643C23E23EBDA86A43BD33BAA33C148C273D757C833D617266BDEB59133DC04CB03C6415803D482B653C6494DA3B7F3FAEBCC825A1BD1759EABCB0AA61BCD7E6153D7F5489BD656099BDDFB6C5BB174B523CAC1C993D5101543D215EB9BAE6346F3D7A40AEBB34FA603D2D843C3C6D5D5CBC5B63D03B59878FBC389B9ABD938A523D1A3C30BDE9D841BC745F453D1272883C2C1C93BD5909BDBBE0A222BD66D6A4BDCEE2013DE416273DC444A63D5759213CEF5D9E3D2A390EBDAC9DBCBCB847A4BC0AAB8B3C3BD4963D0931A63D0C787D3C9A3FB8BCD7699ABDE923C93C0EFA023DDD5858BD0B45A53DF5CD463D1557BFBC1E1C733D9AC59A3D90A372BD8C0E9C3CEAD5563DC87ED4BCAD10E1BCD6DAB8BC90D90DBD8EE3963DA29C733DE64A02BDF308CBBC34550E3D95F3DE3C1A38A3BD737FA53D4E75A3BD699790BD9619A53DC5D1283D668906BDE2E0843CDF1E413DF0009BBD3BC5B4BB12845A3D62EEA73CE4400D3D6F506F3C1A5F48BD0DE1FA3B1065283C5854EE3C63F385BCC1438FBDF9141FBD301B8D3D4356543B6AAC17BC5525353C107E19BCA13B703DE1EDD23C7E0F0DBD18799CBD7AF34EBDC5D86BBD14224FBDF90DA43AC8D3A53C3448E03CC987C4BBA1C6573D4C6F883D863EDE3C5A0B8B3DB13E9D3C937A15BD58FD9F3DB1B69D3D81DD5C3D77DC7D3DF65E7EBDCD2D94BD890A243D1ECE1CBCD5453ABDFEDC39BDCB2D463DDB7E8EBDEEC589BD33B998BDC8E3353CB458913DD95781BD6C47A6BDAB78A23D5037713B3F1CA13D62FB643DD7CDFD3CBA7D9ABDBED275BDCECCAC3CD8451CBCCD2EDF3CD4AE573D8B2C8BBCECE2773D3B67DB3C153D22BDFF20EF3B9A79993D3E2B7CBC77E0923DB54DCABCA578963D7B47FB3CF9A81EBD3A7D0C3D1DC085BB5AEC6D3D35E51DBD1ABA9A3D64B4AABCC090A6BD63D6923DCAC1443D87D5F93C0AA1883C12C4933D604FF93C5E082BBDCE6F03BDE5C7CA3C8EBE8DBDF9E4953D0362CDBCEFBA08BD758DCF3CE511D53C066C833DDF685A3D45F814B8C3B280BC109C6ABD0D5D3BBCC4F29B3C116149BD52C49A3DFBE2023CEDE3F8BCE611A7BD97175B3D65F73D3D7D75C0BC04A595BD714841BDCAA36BBDCE5628BD09979DBC51D38DBCFCCCE33CC0DC173D08DCBC3CD26A55BD2D58CD3C9B766EBD90BE51BD3E729CBDA5E9373B1D0A473D767CF73CDE46993849A818BD651AA73DCCDDDFBC4317593D51C67C3D77A66C3D17E43ABD8F55D5BC72D7803D23DB283DC535563D078D5C3D6E22573DB998833DECB6873DA28013BDFF558ABD0C5692BC5E2A6F3DB56A9C3D541CE93CAD2B87BC9D72ABBCD147073D8EE276BBCEEF61BCEE760DBD4C7C023D2CC0993D642F37BD14A6753B56A5A6BD2C9D333AA0377D3BE9653BBBB3B18FBDB0A8473C76F08DBD2AB93FBC610A7C3D2DF89CBD0E44A8BCE14272BDC81F123D82159D3D5E477E3DB8C71CBD877CC3BC37D9A63DCB3203BDE72B973DB89BCD3C8AB7D0380B7C233DD47907BDFF97FF3CFD9361BD76C2483D616D9ABB2A29013DF7F83C3D135BF93C1887073D6F20F3BC154508BD67BE64BD603F92BDE69D93BD4EC54A3D1D97593D427941BCB2718FBD415A17BDDA5B65BD1F2F82BD07ECF33A2E07193B90DF1E3DBC767B3DD5F030BD1D22803D8385F93C881C4ABCC836263C472DA53CFC44433DA9477DBDDEF789BD2164A7BCAEBB963D753DFEBC0E7B34BCBCFFBEB9B1B2D1BACECC0D3D746E0F3DD455523BFCB227BC0B4E46BD8B053BBDF368593DBDF920BD5A58B4BC7E8338BD5AEB39BDDB409D3D933A5D3C7FBF393C3B3964BCC61B7DBD552C71BD98E2A03D7A123F3D64156EBC9B6583BD701207BD2E76DA3C3A3A16BD205898BD4C45F63C25E5383D64932EBCFB22A3BDF26B94BDD3A72ABD1EFB823D7ECAF83B22323FBDA975943DF45319BD4EC3593DE9B799BD68543E3DE45EDA3CDF75983D8F483F3D1FC66EBCCD8542BB0A758FBCE6026ABDBD1CEEBC2660853DB4ACA63CD2629D3D747947BDA7A94D3D03A2313D9BE1ED3CEF6686BDAF218F3D9511A5BDD598103D7D2A74BD89A83EBD0C1CADBC581171BD096BE73C8C04DF3C708F623DCFC0C0BB11734C3C60ABF4BC70C53DBD52AF393D1375B9BB58F6C6BCA72E433B757F833D0317FFBC0B9D243DD328543CB2F6DDBB76E0F23B16AAB9BC010895BD31D9D6BC34292DBDA9619A3D17FFB83CD26B753D244290BAEDAD013D4FF782BD0247A63D663FBDBB2F792A3D85251C3D4CF1593D5061CE3C53A8DB3C2376743CC95DA63D6984723D4FB7103C32693A3D2EEB503D0BB46DBDB614623B68368D3C13DA9F3D2A40A53D581C323D61AED73CEEA0A5BDB366A239ECC5B2BCD740D83CA86DD93C7911F83ADC8C71BD3E50503D7785963DDD6B5B3DDD6A96BD302B8BBD54C597BDB5879B3D57973ABD9FED013CBEDC323D953D84BA5B6F9C3D5B209BBC92A3AFBB57D81A3D15C4BABC14E0013D550B143DAC9A0C3DD3AD79BD22D6A53D97453CBCD7A4EF3CE176D7BCBF4E803DFCCE3B3DEE18C6BCD66209BDD3A1E4BC263357BD2C6EC6BAEB7DD2BB12781DBD86BEA5BD1AB397BD4EDF82BDE29241BD9BE7103C567446BC5A698C3D2858B8BC238F0B3D50AA1C3AA074613DC0DED03C88197B3DCA40A3BDC3C834BD188A1C3D59EA79BC6384A93CAC2B2C3CBB07F63C74D847BC323A30BDECC98E3C6E5C95BD60E379BD9EC30F3D65CE2B3D40273D3D753E85BD298ED8BB2E2D463B780C073CFDCD303DA84F9BBD4F0CA2BD63817E3D9B95D6BCC7F2623D194B173D4384503B47C525BD5F60633CCAD262BBC78245BC0DA77BBB74B71A3D9A416EBADB6B30BCE75A463CDC20E43C9CAB133D42903FBB6522783D4860D73CA2D0083D241B5F3DDB8FE53C7C4A8B3D1DB0603D9016043D2E9B8BBD1DC909BD37DF983D927B0A3DE482FABC80B7553DCF1A95BCA912C9BC6F85FB3C6535033DFC768EBD37CD92BB08EA44BD81056C3DD312A13D7AFF82BA22520FBC73864DBD013F9B3DD2C7493CB397ECBC2A99913D4B3834BD7817C53C00E270BDE7DE943DB06582BC6EF3A93B80098F3DD239213D13589FBD06ACA2BDC3821F3DFBC9F83C53EAB93BCFBE07BD27748EBDBC10C5BC7C55813D428D8B3C6E250F3D6C7D9ABD2D1F9DBDCEE0A0BD265004BDF392BF3B26F32FBD5D0553BDAFC392BD283C883D7F0376BD731CD7BCC63D7F3B57E8523D74E2A3BB4816A63DA4D203BD9AD481BDE7A163BD280B48BCEAEEAC3CBBF89F3DEF3B9E3D9E0989BD6997A5BD5F82413DBBAF42BD988514BD5866893D37C785BC16B1E5BC8BE9973D38224F3DBCF355BC8B6892BB701ED6BB5369F13C3C074B3CC889083D1F9DA6BD7FA168BDBD6FBABBB3020B3D822F96BD2B747DBCAEFC413D845004BD46ABA0BD1537E2BBEE42A4BD7C838C3D1FA5403D97CD193D86DEE0BB5A9C9C3C832848BCD10A543B1C07A2BDCBA802BDCF05283D6F78F33C3E0BA6BD24A790BCC5159FBCA399C83CB91B86BDA2E0A6BDA76C03BD4486F93CD34F5E3D4A43363DB4FA9E3CE60A1FBD61B0873A9E8273BCFFE2123DAC54093D03C20EBDD55796BDBFCD80BD828D5C3D01E31EBCB58D33BD392F5C3D95E1ED3CF10EA43D0F413C3D962876BD84147C3D5C7B303D40C66D3DB5A12D3DECD943BD8B2369BDB07478BD3BE56ABD0DA6CA3CAD6D4C3B441F37BDB76C7B3D5A0A0BBD1B688EBC56C2623CC0561EBDCA63823D2FB90A3DAC8D43BD8C699F3D103A3E3D9B1D533D87FD993D4FD678BDAECD993D5C6A66BD9B962EBDA726203DF24F01BD5E3343BD99969FBDB1B7EBBC160E3FBDCE9100BDFE9706BC89EE9FBDEC8F52BDE1D2953D1AB0F03B3C75C6BCC56188BDD98B743DED59283D3796963D1AAE323BD1F459BD1915923C73FC0D3D6A5E773DD85E723C30D267BDBE201FBD54109A3DEABB15BD876F9CBDF9A1F83C9E22FB3B406B183DE74A9FBDEFD3883DFABE543C0479D5BC3EA05F3D2BE09D3D39D3193DA9CCA2BDCF5A87BB0093853D8DB88F3D8B8686BC9CBF1EBCFC2A6E3DCA28A03DC7827ABD2A059ABD2B2B413D8B8DC43CDC52D63CAC3F8BBD82A3983D9F68153B28169A3DC6FB9A3C9FCC303DFEA4423B8E5BC93C68FC61BD5C72113D40F9AE3CC2C7BF3CAE67C1BCBEBDD0BA12833FBCFBB29D3C3AC1563DDDF75CBDBBF0073D73FDD03CE06BA1B8738D8F3BE6DAC5BC8A892D3C8A8D503D3B038CBD78EE7C3DA4D60BBDF024A4BC63B0C9BB8F48FEBC6BFFA03DEF0C1CBD1422543D46AC323D14AFA0BD732D793D56D076BD210ED63C610C5D3D53C1003D093D813C8314B0BCE2D4B2BC77E428BD62453FBC2F63A53D7FFE633D4079483D09D2883D013FF9BC94DDA53C0E1998BDE685C8BC90359BBC87688E3D98BC483DF81A45BD93056FBDB629D8BCC57A9CBD7A100ABDE924803D0011873C1CB86EBD9916243DB9FD573D7A06963DA3191FBD5BED0ABD06F049BDA207BABBB95D733D0BE381BD3105273DDF0CFCBB8FEAA33C971FB1BCEDD968BD8B28DBBC0AD23D3D1A61CC3AB7C77CBD4158E7BB9EF9823CBA558CBD9B379CBD7EB395BD6C1C65BC071AA7BDC873D63C3139B83CD5B5E93C073C45BC079AD7BC2B4C8D3D69213CBD1209D8BC887081BD97196C3D74EA9B3DBAE188BDBC4CCEBCC187483CD59283BCA5A48F3D8B1EAF3CED31613CA4E517BD3AAC7BBDC08182BDD9C2743C7DB3293D9525D1BC277CCE3CB2575E3D16AC473DF3D54F3D3D9F9CBD8DD75C3D57655EBDC8CC6DBD569C2B3D777431BDDC083F3DC2189EBA9B6767BD591D64BD26AAFCBCCD052ABD37C25ABD7DFD153D1ACF8C3D48A91C3D91D6513DDD885D3DA370EBBB4A89FB3C4F549D3B8CFD98BC2198ABBC5C7F953D8D75893D0B11733D4C3448BDB91E023D42531EBD3B9F683DB050883DD56552BC421359BD966D753D791B57BB2DCD12BCBB5DA23D0B1F7F3D127FE33C1637A0BD7C9B56BC2861673D65B978BDA421203CEFE272BDB12C7B3D98575BBDE19088BDB17D813D8FFC653D8542213DD4D838BDAC2578BD071E0EBD9D155B3D6EFC62BA9E81303DFFA40BBDA3C67EBD675DA4BD06E685BD771B903D64EE253DCA30063BEF2F873DB163DC3C7C735D3B4495A23D04EA91BD16D8813DDB948ABDA23D4FBD023826BCE12C95BD67CE0EBD5A15003D08BA8CBD4C2A403DC8A65E3DF2486C3D0FCFC5BC6DB13ABD6214053DA7AA8E3DA75386BB34A653BD32096E3D33E385BC9C3E713DDEFC9ABD989B433D9C1BA7BDDDD89339CD657A3D5B5F933D5AEE8CBD2CAFA03D2FE98ABDE3229B3DF90FA63D3E5109BC19E3833D99ACEABCFE32243D2CED433D8B679B3D2DA8DCBBE309A63D015FA23C435692BD33D555BC9E3F95BD0D44523D7470323DFA48A2BD291049BD56177A3C56343D3D4BEB663C30C55ABD163A21BD03084BBCDA38C93CF51991BD08FB80BDBDC87EBDB0C0873CF5DCD5BCBA4769BDD9434BBD8C92883DAEF9643C6B8195BD78B137BD75E6A03C3FCD0D3D78898EBD1F7A753D21FF823C4489C0BC50D1E8BBF82A36BD43914BBDFEC425BD51BED03BD3EE0D3DED0FC4BC05F66F3C13C067BC2391BC3C59D6843BBE34603DD458403D2AEB94BDAD0331BD4EF0973D077932BDF2388BBDEDC627BD4AD0943D3664853D38289D3DFA3E8E3D9A1EE3BC52E8953D89058BBD9B9940BD0A2DA13DB0694CBD5107803B8FD0E03BB565053D181F073DF2D1893DDBD9B8BCDF99363D58B861BD5AA6F4BB95A785BD71CD5EBDE7F90A3C36F4073D045886BD73F70DBCCA7C98BD7E1DBDBCEF028B3DDD3202BDE9139FBB0AEC98BD536453BD3E1A9C3C3B1443BDD7F614BD69224D3C833455BD61AADC3B1AB6D6BC67D43ABD8C9EF53C6DD7CDBC0804D8BC5776773D966A8FBB7CFB75BDF08ABEBC6245D13C0CC6103CD2D09BBD2DB9493D7940BEBC6540563D66985D3D566230BDAA3109BDF3E07FBD40AF943DAE2C38BCC4548ABD5E4103BD08E382BD023E40BD2FA445BD2FFA5CBD1D865B3D8E4E3EBD109D00BD08D5853DB0D485BDB95BC3BC30A1913D28C1293D9DC0D9BC880CE13CB3ACA4BA294C503D1431A73C4528A4BDF7A8A2BD826E7A3D260968BD056F4FBDE3C09ABDA70C27BD98AEBC3C336CA1BA152D86BD9BD865BD99B098BD84131BBDD41F90BD5FCD81BB8E4E8B3D00A242BD1E13A4BC7F8D35BDC1CC8CBD99BE87BDBEB6353D18770D3C738D593D3D2F853D1E968FBDD654A6BD67F0803DE67F25BD43A098BC853C653D2AC5433D0E5111BC592D013D76DAA4BDD42E743DEA318ABDB4991E3DDF90BC3C353A43BCAC099ABDAFF2B23C89CE3BBD7ADF5ABD2FC609BD6E32543D01359F3DA5992DBDDF866D3C12F21BBCEEC9843D88E1073B0CC208BD77D732BD9C1F8A3B1CE0EBBC97FCFA3CD9F709BD9028863C719667BDB1F8CBBCE4179E3DC92BEBBCF4BF0C3D14512D3AD8A61C3C2976AE3CF5E39E3DBC56853D1FA77ABC69F0A5BD4F075E3CC678483C624E09BC8FCD223DC6AAB7BC313745BD0BB2EDBC3F3DF23AAB0A79BAF8BCDDBCAD3D43BB228B1C3DC1D9403CE72F41BD45E073BD0E3280BDCF21C1B978A68B3A9F8D203BA2D793BDA5F2A53DB47CF03C592F86BD4A07903DCA4297BD01941DBDC5750EBDB2AB883DE7C88BBD1F39A23D4BBC3EBDE2E592BDED83203DB13D953CFA74F93BDB37903DBF7F89BD29392FBD1D6F5C3D2CEF0E3D6D6CA1BD352264BB757E7DBD337499BD3944033B804CB3BAAF671A3D9E3164BDC80832BD7F69D6BC92F043BC364056BD0CE1733D54CE2D3B3063793D90B08CBCDF35A23DD0D1263DEB6F0CBD81CC483B1596D03CC56CC0BC931569BC001FECBCF01D8E3DF43B5A3D5892303DA79078BDF741A1BCDA6B5F3DF3D19FBDE29D823D839C5D3CE5B1663CEE1DA2BC728D193DD05099BDD67EA33D5DA73F3C3FDB653DC55F71BDD3F5383C1ED0B63C8B93FDBC8C068F3C3E44BF3C2F0F643CD005823DDED990BDB50F01BDC2617DBD64C0B2399189CEBCCBEDDDBC22FFC7BC41DAEDBC3C059FBDAB1D5DBD18BE8BBD94481CBDFA03533D31E887BD80956E3D543331BCE2188EBAF6EE13BD648541BDE4F19D3AE6138C3DE26B3CBC851E5F3DEF55613C0F263FBD6CCA0A3C458B14BCB44E9ABD6EF8DD3CAE474CBD374A823CB9C29EBD6A566F3DA8D6B03C2D43113BFE689CBAF8B7E73C6AEF383D71C1AEBC0C70A5BDAC4D9CBD8470EB3CD5201A3C37508FBD9A23BFBCF2EC58BD7FE8883DD457C53BE6E96CBCE81B21BD1ED9ACBC806E773B952785BD6A574BBDEF35443D6D05D2BC015097BDDA302ABD28139A3B775A343D90691F3CEF0396BDF1ED32BD4898063D97511B3DD12087BC6AEB1E3B665DA33D8C175DBD2E0287BD09A720BDC22B873D40D71BBCD589FFBC9ED3BA3C76DB4F3D840A1CBD175F39BDFD0684BD0F40B73B2F6A09BDA59D8E3B618DF53C9977A8BC9E6CFDBC97FA8DBDDCCF28BC81F5563C37B1A63D57C53F3DA46096BD751C3A3CE19179BC7FF3A2BD908219BD463E94BBB7A20DBDA209E93C21C593BD9CB00A3DE7BD213DA71065BD9251CC3CC499A53D44A5043D06028E3C4669AF3C85BF733DF77CA4BD75DB633CD4779C3D873C413DC4A9033DCE42A23D9330403CD74A9FBDE7B5853DD9FA78BDDC1B08BD3970ABBC798B0BBD27CB22BD60DF993DBAD28DBC0AF8D3BCEA5AA43D49A3853DF4ABE6BCC2F15A3CCC1C8CBD5EEAC3BC8E9BBB3BA697F53CAE95693C4A87523DA1FE253D67AEE13C427C2CBDA6F7573D6F238A3DD2659C3D073E52BC9D07AD3C6E15913CC35AE53BD6234C3D6A7B92BD9F052C3D3A49C1BCD7FC973B22C48A3A640781BD68472E3DEB966E3D02A3A63B43B147BDAE9969BC1433A7BC4155C33C83E9523D9DB789BDAE8D4F37FCAE353D669A30BD8CB95CBD27C8283DD013793C9B62C8BC239B373DFAAB373DBA5740BDFDE53F3BB45A83BD8E22C23C4433B9BC468732BC09928F3D162293BD74D0BABC93E7A0BD852C8C3DC5D695BD30CB373DB37B043D40C3223C0C7731BD51C05D3CC23D8A3C1618EB3C01D661BB4730A0BC148B8D3C69D39E3D8C96683D1D9117BDF5A66DBC4F8B5FBCBB6A52BB2483D53BA319A33CCB3BA1BDA2D2FB3CB2E5F9BC6F66A53D1DF9423D27279A3DE61453BDDE184DBD4A6A013C64C0493CFFB911BDE25E2BBDDF413A3D94CCA33D853F97BD80908E3C13FDBF3C45EC88BDBBF0083D838FF9BBB45ADD3C79D50D3D9E277A3D5464DEBCC097893DC874A03CF0CCB0BB3192E13C2311823D5A61ED3CBC97A43DB4018D3C5E69A63DA3C470BDAC8948BCF8129FBD6DFE90BC2073963C08817A3C8F4B0EBD9331DABC60F723BD9117623C2FAA8BBC8CDF433D4A4965BCD721643CAA367C3DCC88B6BC038172BB61F1E3BCC2901DBD068952BD1A8925BD05220E3D5065B43C7AE395BD3C679ABC3A4EB4BC7D44893D42418DBD89FD70BD0C3A33BC4547D5BCAC5F98BDF7FD8B3D21CB95BCA3F9AE3C0126263DA8EE8E3D6A90813D97C0893CE39A96BDDBD6573D5D6C993DE3CC4E3D52D206BD14AA743DB3E16E3D190690BD85872E3DA6A49EBDE0BBB03B5E7C9D3D4AD791BC8BE9683D88E30B3D3E4463BD3997C13C48F365BB47AD88BDCD9295BD778D4EBCCAFB9BBDE1EE0FBDFA22953DCA3E823D410EA2BCEE0B233DC85A1ABD777612BD5C706BBDB5DACBBC5567E8BB3BA5213C4FF28C3D95C205BD0821863DB531A03DE0B24CBD2A02663DEC968FBB1750123DFA4A433DB5BEF93BA0000A3D27C41BBD62DC4C3DD37B44BC87B689BDE915B93C591C5F3CD4B96C3D6D527DBD43B646BDD717353D2978973D18B19DBD295B393DA73B4B3B79A4A0BD3EF8FABB2C240E3D38AB39BD285C75BD5CE54A3D67F5A2BDE79F2DBD154819BD7FBC3DBDBC368FBD80926FBD3E488C3D99DD70BD7F8031BD00CF533DD5CF25BD64378F3BC74FE03C602ABA3C57D8EABCB31E8E3D57885F3D9F144E3BB2D816BC0AC904BBC1EF50BD8197913D00A9D33AC135A13DEAA2743DFC012E3D41B2A1BC77798E3D5669D83C6FA7A6BD462A8BBD3A8C40BC780077BDA2F7A43CFF54F83B8441DABB2B31ECB9D4C48E3DD90727BC9BACA3BD83663FBD9BC10B3D974F513D8110A63DAC2783BDABC764BC77A056BC8BAE073CCC19FB3A20DB5C3BCC9DB93C217D543B99C22ABDEF4C663D1AA2853D7EF5C8BAAE707D3D5C774BBD85E99CBD4339ED3C58574CBC876938BDFBFC85BDE6551DBCECF486BD43219F3CA09181BD19CB683DE9597A3D2AEFCDBC1BA7313CF3658E3D26B881BD05D7183D09A5593D4E32CB3C6DFA583DE59426BDAD76ABBCA74E933DC58F903D5939A1BDF9D79ABC28105DBCEC0B9E3D28CD873DE4AD913CE747B63C539FA2BDE8DE953D238703BD569A733C08F37C3D57F221BD8FC5343B5ABDAABB3456863D0A3985BD29EF9C3D01F90ABDA32A5F3C2EBBE9BCFD690D3BF354173D3A49083CB21F2B3C8187923D806E84BD25545BBD0136F13BE03C343CA2A77BBDF04CB23C515EF93C64850C3D68678C3B184A42BDFEA28E3CE0C030BD495C31BDBC061BBD97F6E03C88D3113A0A5363BD5BC5913D902A4D3DD5DCA23DEBD21ABD8B717C3DA864DEBC44D8863D2B01993D386B7D3D0CC67A3DFFD6863DD249EFBC0B4D9ABB4D6F2E3C340A7B3DD27E84BB44C3D13CBD07593DF54C2DBD4B01B93C28F951BC98238F3CBCB37DBD8B22A1BD88694B3D373535BC08CA6E3D27333D3DF9EB833C7CBD8ABD78CB9CBD290F9FBDD7D673BD9D4F37BD09A87C3D6A253E3DDC4215BC0A6783BD198B83BDD7D759BD4A509A3D963B32BDB4564C3D4D4A6BBD761A9ABCF9FF6BBD4DF73CBC4B8923BDB1606EBDE8D1823DE8D690BC41CE10B9E3EC2D3D2B223DBD3FB5563C2210813DBC9E4EBC33199F3C3EFFB7BC11009DBD4C1808BD89F1B83B06D43FBA0D38A33BD3BA24BC7AE681BC16E3A13D68EBF43C105B3F3C0D8436BDF1151EBD08A300BDA41737BC4FD2003D32BD94BDDC6179BD821B9B3D9CA780BD98F584BD09829ABB19ECB43CC9061E3D565D31BC49FD9F3C300C0EBC51FDEEBBE240A2BD5EA0723C1025443DF7C3F2BC335F14BDE4731B3D2139DFBC935F8C3DF16A66BC6AB88D3DC4C7FCBB10F281BDC4DE83BD1B892B3CCB711DBDF16444BD23658ABCBDE3043CF27B31BD09CFAEBC13F584BD4B0B90BCC472EA3CCDE682BD3FFA803C51B72E3DE850EFBC032B2DBDB1BE873DF9429B3CA18E953DD291873C558C453C345F623DCE525EBD922199BD1986B4BC3774AC3B6D2697BD510F46BD63EA743D686E523DF20C803DCFC806BDDB65933D4A5BA03D46ED593DE7231A3D1B9B24BC0E8E6DBCF5A7A13DD1FE9A3D8CF5AF3BEDC2223C8850383D62DD843DD1DB07BB3356913BA1745A3CC3CAA2BCD3739D3CC203973DE944BD3C91EB6A3D9A8E283D277130BDC409883D95C0C83CE4CD3F3D28B276BD4B045B3C510E4EBDE49EAD3BC970953A18B9633DA2AA073D8CB835BBDD854F3D502493BD58EF60BC7D168BBD5DB6A3BD762A513C6A79283D75E31C3DD0D17E3DB89349BD5E8E3F3D55087E3D415948BD493B2C3D04FD2F3DD3A980BD07122A3DCF34D13C0E0B923B752B84BBED3D02BCB9EE0D3D0FE36BBD26705EBCD2559D3D61A4843C23B0B5BC2E03E43CD9F1C43BE6AEE03C84999D3DFFD50ABDC16B9ABD35395EBD13A684BC9D2490BD9C274BBC5CC72EBC8094363D56B48FBC3A721B3D9144A4BD6479EEBCF6EA56BD28147CBDFB6B9F3DDD8AAB3BFA814B3D1DEB813C9437813DF6F0553D935575BB98C2983AB99DA4BDBB39DB3A0CFE823D54C45E3DB4AF8CBDA44663BD60C7953CD05A1A3D12974F3D9FB518BD1957C2BB1B4262BB3CCC353D981154BC89E44FBDD4A2A3BD0FBA8DBD6A97143D8BE641BD892730BD260FA5BCAFB52E3CE8DAA33D07C527BA485791BDF1CF01BCC16B9EBC11775A3DAD7CB8BCD8B58F3D240F8CBB39E859BDCF448FBDC2A405BCBF2C0A3D45123A3D3AC7F8BBCAE1463D8A38933D7790913D2E6376BBCF25FABCEB75E43C11BB30BD1BA1D5BC64B4973DEFED993D6A4E783D088E1BBD9CB331BDDC9D16BD55FD803DC44234BDC2B246BDC88696BCFD0597BD4EFC8DBDE82D9BBB631AA63C699967B978FA083D37372C3D075492BC08E144BBC91D7E3D2EF29ABC7DE30A3B110357BDA67C92BC03CFC63CD21C30BDA8A7EABC938E80BD0538A2BC98791E3C9911A4BD608A8E3D1A826CBDC0C9513DE4304C3CF05C66BD741904BCB77BB83B7B568C3D89B2E5BC91E1593D9E4A99BD4B648A3D962997BDE808723D3CEE93BD1924423DDE72533C5F05883D3C9B84BC61A2893CB95C3EBCFD665DBD8BBB563DCCC12E3D276B88BD6F598CBD8E928FBDEA0499BD057A943C819E24BD3606713D35502BBD34FE4BBD22A538BD1B0F05BDE45F7EBC2EFABCBC773487BDB99DBDBC9D0A883D5340383DFD4EDA3CA058713DF2D4DB3CA450AE3C83FEEABC7F2815BD6714053C3989803DBB42483D0313953CF988E8BB89BF9EBDEFEBB4BA7804953DF3EF32BC3FF4903D3B739C3DA0B68DBDB41FE3BBB66F45BD52DCEFBC0EBB573D8F3891BC7E1F80BD4D21BE3C42AC8BBD79D6593D91FE8ABD273CA1BDDBFB88BD8D8F88BDBF8F20BD3FBC9C3DD70E5EBD14E091BD8DFA00BD29E9D0BC70E7783D96AA42BC84EE923DA0FF2DBD0FDA173C8627F53B6FA36F3DF0F8BEBC4BF07BBDBF6612BC70A5DFBC8F46BB3B888D51BD2D4A7BBC962E103D1DB5E4BC3DA4D43BC40A473D51A1343DC944403D56D6AF3C182E5ABD28B0543C9318163DD52D8E3D989AAC3C47E8A2BCD695423DD25E0FBD3907E13C6E3017BCD97B803D017336BD02BE393D2A4D98BD27963D3C7C1747BDBE4F3B3CFE306C3D76F916BD5AC2693D2AE1823CF7E435BB56AD64BCCAFB433D5C75A03D9F3212BD6D6D073BCE8F543D33BA833D2651853D0B0F313DC389693CA8E307BB271E9C3D0073573D60F9913D54214EBD66868ABD55C2143D50424DBD98399BBDFFC65F3C4C77583A1CB5F43C9B7B773CCBF00CBD097829BD8D7B713D86CE6BBD741DB5BC84D432BDCF85EDBA539A3D3D4287E8BCC550EE3C8A9E94BD8449A93BF0F4613D49AA60BD858B32BCC614F13B0D089F3C9474863C53601FBD076BC93CC8EA97BDC848A6BD7C0CCDBCED02763DED77D63BA0B1A0BD8D46413D3DAD84BCD89526BD38DFB13C15C578BDA62EA73C28AF60BDD3492A3D02FA86BD9DBC563D999A573DDFDE92BD2E80D0BB12ADC8BB1BF249BDD8794CBD960C0A3C648A0C3C61738DBDFF9F963D0305933D599F913DD83AA6BCDB7F993D4849D43B0EF720BD911D983DF013DF3CE27384BD5873C83B6080813A1B7A89BDC5482CBD7ABF8BBD6952953A95778ABD2BCC2ABD0397013DF53A88BD7787833C3F62A4BDEF8D4ABDDD5C6DBD13888E3D068057BD02A7523DDB5D423DA7857D3DAEDE623D29A791BD0D05AC3C1CACA0BDDC8E94BC8BA361BCB0AC773D8E1AA0BD833A2C3DB12E88BB84967E3CA8C2953D8717743DA4D9333DF47990BD263371BD6D868BBD086E283D18ED8F3D727767BDB3F080BDC2AF8DBD67F386BD8E52573D6B5AC3BBA52BA53D03E9ED3CB442033DFA3A69BD2F08DC3C027184BD268F9E3D43EE0D3DB505C33C4E9277BD26874FBB5ADEE6BBF2092F3CB5725DBCC722693D91A1633D4A275FBD5A7C233C55CA893D9A5EB13BEC52533DB36418BDF3C628BD1FF51E3DB0D5873D92AB93BD5343CE3B6030A7BD7022593C7F428A3CA5FC243DDCC5843DC788073D42CEC8BC435878BD47078D3BE781233CB9C19F3DF2DB47BD1B83833D81D78FBD80C558BD57D4A03DA9AE553B567D373C7231303DAFFA733CF28DFB3C3FA19FBD088184BD444264BD2399893D481531BDBDC352BDC4F12DBC6D905DBD619C1BBB4980633DBC184D3CA91363BDE79E253D3A1C8C3C5A254BBD5F52103DC9FF35BDD6C79B3DCEDE81BDFAA481BCC91E9E3DCAC091BD0C965C3CC78D2A3D87ADB23C268C2FBD427AA13DE87A8C3D85AD713D71D989BD4C1D263D1418513D53A18EBDAE1075BDF08C92BD26DEBF3B7E0D73BC7541803D2A45A5BD7056483A93D4113D23908B3C8D58F5BC111A963D011B2CBD8A85D1BC794FA2BD431767BC89588FBD267006BC0E13DD3CBB4B6ABD9A29A2BD54D77C3D271468BD15A06A3D179719BD154896BD8881E43C8E6E97BDFF09A6BCEE334C3D667E413C4CE39ABD9B0947BD09F4A3BD05A9713D4AFD8ABCAE05223D065E063B81775DBD9FB9743D293176BD733C5C3D2F5B78BD1CCD103D31E236BDC185853CB461DDBC2B8A3CBD7C7ED83A28CAAEBC57A323BBC446113CA357C63A"> : tensor<16x6x5x5xf32>
    %cst_5 = arith.constant dense<[0.0318751745, 7.3101715E-4, 0.057228528, 0.0189361125, -0.0644128248, 0.0126917083, 0.0766724497, 0.0684446394, 0.0288919564, 0.0066935895, -0.0142084351, 0.0633666664, 0.0724183619, -0.0276079178, 0.0151517568, 0.0296547636]> : tensor<16xf32>
    %cst_6 = arith.constant 